#ifndef DIABETES_MODEL_ESP32_H
#define DIABETES_MODEL_ESP32_H

/*
 Author: Likhith S 
 CAUTION: This is an auto generated file.
 DO NOT EDIT OR MAKE ANY CHANGES TO IT.
 This model data was generated on Mon Nov  4 10:14:02 2024

 Tools used:
 Python:3.7.1 (default, Oct 28 2018, 08:39:03) [MSC v.1912 64 bit (AMD64)]
 Numpy:1.21.5
 TensorFlow:3.7.1 (default, Oct 28 2018, 08:39:03) [MSC v.1912 64 bit (AMD64)]
 Keras: 2.10.0

 Model details are:
 NUM_OF_EPOCHS = 50
 BATCH_SIZE    = 8
*/

const int DENSE1_SIZE = 48;
const int DENSE2_SIZE = 16;

const unsigned int diabetes_model_esp32_len = 4608;
alignas(8) const unsigned char diabetes_model_esp32[] = {
0x20,0x00,0x00,0x00,0x54,0x46,0x4c,0x33,0x00,0x00,0x00,0x00,
0x14,0x00,0x20,0x00,0x1c,0x00,0x18,0x00,0x14,0x00,0x10,0x00,
0x0c,0x00,0x00,0x00,0x08,0x00,0x04,0x00,0x14,0x00,0x00,0x00,
0x1c,0x00,0x00,0x00,0x88,0x00,0x00,0x00,0xe0,0x00,0x00,0x00,
0xd0,0x07,0x00,0x00,0xe0,0x07,0x00,0x00,0x50,0x11,0x00,0x00,
0x03,0x00,0x00,0x00,0x01,0x00,0x00,0x00,0x04,0x00,0x00,0x00,
0xc2,0xf6,0xff,0xff,0x0c,0x00,0x00,0x00,0x1c,0x00,0x00,0x00,
0x38,0x00,0x00,0x00,0x0f,0x00,0x00,0x00,0x73,0x65,0x72,0x76,
0x69,0x6e,0x67,0x5f,0x64,0x65,0x66,0x61,0x75,0x6c,0x74,0x00,
0x01,0x00,0x00,0x00,0x04,0x00,0x00,0x00,0x94,0xff,0xff,0xff,
0x0e,0x00,0x00,0x00,0x04,0x00,0x00,0x00,0x07,0x00,0x00,0x00,
0x64,0x65,0x6e,0x73,0x65,0x5f,0x39,0x00,0x01,0x00,0x00,0x00,
0x04,0x00,0x00,0x00,0xea,0xf7,0xff,0xff,0x04,0x00,0x00,0x00,
0x0f,0x00,0x00,0x00,0x66,0x6c,0x61,0x74,0x74,0x65,0x6e,0x5f,
0x32,0x5f,0x69,0x6e,0x70,0x75,0x74,0x00,0x02,0x00,0x00,0x00,
0x34,0x00,0x00,0x00,0x04,0x00,0x00,0x00,0xdc,0xff,0xff,0xff,
0x11,0x00,0x00,0x00,0x04,0x00,0x00,0x00,0x13,0x00,0x00,0x00,
0x43,0x4f,0x4e,0x56,0x45,0x52,0x53,0x49,0x4f,0x4e,0x5f,0x4d,
0x45,0x54,0x41,0x44,0x41,0x54,0x41,0x00,0x08,0x00,0x0c,0x00,
0x08,0x00,0x04,0x00,0x08,0x00,0x00,0x00,0x10,0x00,0x00,0x00,
0x04,0x00,0x00,0x00,0x13,0x00,0x00,0x00,0x6d,0x69,0x6e,0x5f,
0x72,0x75,0x6e,0x74,0x69,0x6d,0x65,0x5f,0x76,0x65,0x72,0x73,
0x69,0x6f,0x6e,0x00,0x12,0x00,0x00,0x00,0xec,0x06,0x00,0x00,
0xe4,0x06,0x00,0x00,0xcc,0x06,0x00,0x00,0xb4,0x06,0x00,0x00,
0x84,0x06,0x00,0x00,0x34,0x06,0x00,0x00,0x24,0x03,0x00,0x00,
0x54,0x02,0x00,0x00,0xc4,0x00,0x00,0x00,0xbc,0x00,0x00,0x00,
0xb4,0x00,0x00,0x00,0xac,0x00,0x00,0x00,0xa4,0x00,0x00,0x00,
0x9c,0x00,0x00,0x00,0x94,0x00,0x00,0x00,0x8c,0x00,0x00,0x00,
0x6c,0x00,0x00,0x00,0x04,0x00,0x00,0x00,0xae,0xf8,0xff,0xff,
0x04,0x00,0x00,0x00,0x58,0x00,0x00,0x00,0x0c,0x00,0x00,0x00,
0x08,0x00,0x0e,0x00,0x08,0x00,0x04,0x00,0x08,0x00,0x00,0x00,
0x10,0x00,0x00,0x00,0x28,0x00,0x00,0x00,0x00,0x00,0x06,0x00,
0x08,0x00,0x04,0x00,0x06,0x00,0x00,0x00,0x04,0x00,0x00,0x00,
0x01,0x00,0x00,0x00,0xeb,0x03,0x00,0x00,0x00,0x00,0x0a,0x00,
0x10,0x00,0x0c,0x00,0x08,0x00,0x04,0x00,0x0a,0x00,0x00,0x00,
0x01,0x00,0x00,0x00,0x02,0x00,0x00,0x00,0x04,0x00,0x00,0x00,
0x06,0x00,0x00,0x00,0x32,0x2e,0x31,0x30,0x2e,0x30,0x00,0x00,
0x12,0xf9,0xff,0xff,0x04,0x00,0x00,0x00,0x10,0x00,0x00,0x00,
0x31,0x2e,0x31,0x34,0x2e,0x30,0x00,0x00,0x00,0x00,0x00,0x00,
0x00,0x00,0x00,0x00,0x8c,0xf0,0xff,0xff,0x90,0xf0,0xff,0xff,
0x94,0xf0,0xff,0xff,0x98,0xf0,0xff,0xff,0x9c,0xf0,0xff,0xff,
0xa0,0xf0,0xff,0xff,0xa4,0xf0,0xff,0xff,0x4a,0xf9,0xff,0xff,
0x04,0x00,0x00,0x00,0x80,0x01,0x00,0x00,0x36,0x51,0x00,0x00,
0xc2,0x26,0x2d,0xd9,0x10,0xc8,0x44,0xc1,0x0b,0x1d,0x26,0x38,
0x4c,0xc4,0xf4,0x3b,0x31,0x26,0xd7,0x26,0x31,0xe8,0xb5,0x01,
0x07,0x00,0x2c,0xea,0xb7,0xfb,0x2e,0xfc,0xd2,0x96,0xf9,0xdc,
0x15,0x36,0xe9,0xb4,0x21,0xbc,0x3b,0xd4,0x0e,0xe3,0xdb,0xe2,
0x40,0x41,0xbe,0x04,0xbb,0x25,0x60,0xf4,0x1c,0xd9,0xdc,0x0a,
0xb2,0x54,0x33,0x1a,0x31,0xe6,0xf1,0x33,0x08,0xf5,0xd9,0x12,
0xf6,0xd3,0x1b,0x23,0x1a,0xf0,0x29,0xbb,0xdf,0xea,0x4f,0xe0,
0xaa,0xf0,0xf2,0xde,0xfb,0xec,0xaa,0xd9,0xde,0xa2,0x43,0x40,
0x10,0xd6,0x17,0x47,0x10,0xa0,0x18,0x4f,0xc5,0x01,0x0f,0xf2,
0x13,0x26,0x59,0x07,0x34,0xb1,0x48,0x11,0xef,0xc2,0x7f,0x03,
0x16,0xd2,0xf9,0x40,0x13,0xec,0xb7,0x28,0x18,0xbe,0xe6,0x13,
0x19,0x24,0xc4,0x29,0xf8,0xf9,0x02,0x09,0x1e,0x19,0x44,0xd7,
0xee,0x27,0xd5,0xb3,0x20,0x06,0xd1,0x1f,0x40,0x0e,0xe0,0xf4,
0x2d,0xc4,0x2f,0xd5,0x1c,0x15,0x14,0x0f,0xd0,0x6b,0xd8,0x21,
0x12,0xb4,0xd4,0x52,0x37,0x40,0x15,0x13,0xd1,0x2c,0x07,0xe8,
0xef,0xe4,0xf3,0x1d,0x3e,0xc5,0xcf,0x9d,0x3a,0xd2,0xc8,0x1b,
0xf6,0x52,0xf1,0xa1,0xfc,0x3a,0xe8,0xd2,0x14,0xff,0xce,0x0b,
0x17,0x12,0x4a,0x3d,0x1b,0x01,0x39,0x34,0xf8,0xc5,0x0f,0x39,
0xf3,0xeb,0xa4,0xe2,0xd9,0xda,0xa5,0x0e,0x06,0xce,0x38,0x27,
0x3e,0xd0,0x1c,0xf3,0x15,0x27,0x34,0xeb,0xd3,0x17,0x18,0xef,
0xe4,0x1f,0xab,0xd3,0xf2,0x05,0xbc,0x38,0xd0,0x11,0x1a,0xd8,
0xf3,0x67,0xd1,0xe9,0x32,0xfd,0xf0,0xe5,0xd4,0x46,0x17,0x56,
0x25,0x47,0x18,0x1e,0xc5,0x41,0x47,0xc1,0x1f,0xe1,0x4d,0xb7,
0x42,0x25,0xc7,0x2c,0x01,0x23,0xf3,0x55,0x1f,0xeb,0x42,0x3b,
0xd4,0x6c,0x2f,0x0f,0xa8,0xf5,0xd7,0x34,0xed,0x48,0x1d,0x06,
0x23,0x29,0x51,0xfa,0x12,0x08,0x23,0x33,0x28,0xff,0x28,0xcd,
0xf8,0xcd,0x9f,0xf9,0x0c,0xfc,0x12,0x42,0x3d,0x5c,0x24,0xff,
0x30,0xf3,0x61,0xc4,0xc9,0x3c,0xe1,0xdc,0xec,0x0d,0xfc,0xc4,
0xc1,0x1c,0xa1,0x37,0x03,0x00,0x11,0x05,0x46,0x02,0xc1,0xa0,
0xd3,0x07,0xfe,0x39,0x22,0x24,0xea,0xd1,0xa7,0xc7,0xe6,0xe0,
0x3c,0xbd,0x15,0xc8,0x27,0xb6,0x40,0xd8,0x3c,0xe9,0xf5,0x0d,
0xbe,0x48,0x07,0x04,0xc5,0x2b,0xed,0x1d,0xd6,0xfa,0xff,0xff,
0x04,0x00,0x00,0x00,0xc0,0x00,0x00,0x00,0x21,0x02,0x00,0x00,
0xd9,0xff,0xff,0xff,0x5a,0xff,0xff,0xff,0x6b,0x00,0x00,0x00,
0x1f,0xfd,0xff,0xff,0x55,0xff,0xff,0xff,0x6a,0x00,0x00,0x00,
0x57,0xfe,0xff,0xff,0x9c,0xfe,0xff,0xff,0x14,0x01,0x00,0x00,
0x3a,0x00,0x00,0x00,0xc3,0xfe,0xff,0xff,0x0c,0x00,0x00,0x00,
0x22,0x00,0x00,0x00,0x85,0xfd,0xff,0xff,0xae,0xff,0xff,0xff,
0x7f,0x01,0x00,0x00,0x3d,0x02,0x00,0x00,0x31,0x03,0x00,0x00,
0xbc,0xfd,0xff,0xff,0x00,0x00,0x00,0x00,0x36,0x01,0x00,0x00,
0x1b,0x01,0x00,0x00,0x7e,0x01,0x00,0x00,0x0c,0x01,0x00,0x00,
0xb7,0x01,0x00,0x00,0x21,0xff,0xff,0xff,0xcb,0x00,0x00,0x00,
0x96,0xfc,0xff,0xff,0xa8,0x00,0x00,0x00,0x9c,0x01,0x00,0x00,
0x37,0x02,0x00,0x00,0x18,0xfb,0xff,0xff,0xac,0xfe,0xff,0xff,
0x3c,0xfd,0xff,0xff,0xb8,0x01,0x00,0x00,0xce,0xfc,0xff,0xff,
0xa7,0x02,0x00,0x00,0xb5,0xff,0xff,0xff,0x92,0x02,0x00,0x00,
0x07,0xff,0xff,0xff,0x3c,0x00,0x00,0x00,0x48,0xfd,0xff,0xff,
0xf7,0xfe,0xff,0xff,0xf9,0xfd,0xff,0xff,0xa0,0xff,0xff,0xff,
0x13,0x00,0x00,0x00,0xfe,0x00,0x00,0x00,0xa2,0xfb,0xff,0xff,
0x04,0x00,0x00,0x00,0x00,0x03,0x00,0x00,0x5e,0x48,0x92,0x33,
0xca,0xe0,0xd6,0x02,0x3f,0xd3,0xfa,0xdf,0xe8,0xb8,0xd3,0xbb,
0x20,0xd5,0x42,0x1d,0xfe,0x20,0xd4,0xf5,0xf4,0x39,0xb1,0xe2,
0xdd,0x1b,0x53,0x28,0x3f,0xfd,0xee,0xe4,0xba,0x33,0xd0,0x2b,
0x22,0x50,0xdc,0x18,0xc5,0x22,0xee,0x00,0x26,0xcd,0x1f,0xf0,
0x45,0xbc,0xc4,0x54,0x11,0xe7,0x17,0x23,0xee,0x39,0xeb,0x10,
0xe4,0xc9,0xf6,0xf2,0xcd,0xa0,0xcf,0x0d,0x4b,0xf7,0xf9,0x47,
0x22,0x51,0x3e,0xea,0xcc,0xf7,0xce,0x1e,0x35,0x3a,0xdf,0xe6,
0x18,0x3b,0x1a,0x63,0x01,0x34,0x3e,0x96,0x23,0xfc,0x4a,0xd6,
0x46,0xe9,0xbd,0x1e,0xa7,0xf0,0x35,0x59,0xc9,0x2c,0x31,0x19,
0xf0,0xdd,0x48,0x0d,0x46,0x1e,0xd4,0x5c,0x3d,0xc3,0xe1,0x57,
0x46,0xf0,0xb7,0xef,0xcc,0x0f,0x35,0xd9,0x3a,0x30,0xd8,0x4c,
0x23,0x34,0xdc,0x5e,0x31,0x3f,0x2b,0xb2,0x50,0x14,0x05,0x59,
0x26,0x2f,0x44,0x59,0x56,0xec,0xfb,0x8f,0x31,0xf3,0x45,0x46,
0xfa,0x08,0x1c,0xd8,0xef,0xfd,0x34,0xd7,0x1c,0xcb,0x14,0x04,
0x95,0xd5,0xf9,0xca,0x17,0xc1,0xdb,0x13,0x39,0x19,0x17,0xf1,
0xfe,0x2e,0x9c,0xba,0x2a,0x99,0x4b,0xcd,0xf7,0xc5,0x22,0x5f,
0xf9,0xa8,0xc9,0x1e,0x0c,0xd5,0xb3,0xdc,0xf3,0x0a,0x06,0xb5,
0x28,0x2e,0xfc,0x07,0xef,0xd2,0x53,0x21,0x06,0x2e,0xdc,0x08,
0xc2,0x17,0x1c,0x4d,0x51,0xe6,0x04,0xef,0xbb,0x1c,0x3d,0x1c,
0xf3,0xd9,0x1e,0xd4,0xe2,0x62,0xca,0x10,0x91,0xef,0xd6,0x1a,
0x0a,0xd7,0xec,0xd5,0x1e,0x44,0x0d,0x51,0x0d,0x4c,0x2b,0x0f,
0x43,0x1d,0x4f,0x35,0xd0,0x04,0xcd,0x37,0x23,0xeb,0x26,0xef,
0x04,0x25,0xec,0xb6,0xc4,0xf2,0x00,0x0d,0xe0,0x1f,0x28,0x26,
0xce,0x04,0xfe,0x63,0xe7,0x4b,0x41,0xe6,0x09,0xdc,0x1c,0xf0,
0x0e,0x11,0xb8,0x14,0xd3,0x38,0xbd,0xc6,0x22,0x3f,0xaf,0x03,
0xf5,0x3d,0x04,0x02,0xf6,0x4c,0xcc,0xfa,0xc0,0xe2,0xec,0x15,
0x3f,0xcc,0xcc,0xe7,0x2e,0x0f,0x10,0x33,0xc4,0xe7,0x41,0x2f,
0xa4,0x21,0x2f,0xfa,0xc8,0x35,0x44,0x06,0xd6,0x1b,0xdc,0xe2,
0x0d,0x3d,0x13,0x02,0xc6,0x29,0xfb,0x51,0xe8,0x3e,0x22,0xfc,
0x44,0xf5,0x2d,0x27,0x28,0xbc,0xd4,0x18,0xeb,0x38,0x1f,0x66,
0x37,0xf8,0xcc,0xc2,0xcc,0x1c,0x2f,0x4a,0xc3,0x13,0x03,0x30,
0x12,0x5a,0xd0,0x0c,0xd7,0x0a,0xf5,0xe7,0xf9,0x0a,0xe2,0xe7,
0x37,0xd5,0x32,0xf1,0x1d,0x27,0xf5,0x1e,0x15,0xfd,0xda,0xde,
0x59,0xf3,0x0b,0xb4,0x46,0x2d,0xcd,0x16,0x31,0x2d,0xdc,0xdc,
0x53,0x36,0xf0,0x10,0x3d,0xa6,0x57,0x1b,0xec,0xd1,0xac,0xe4,
0xb9,0xb0,0xc5,0x18,0xec,0x30,0x0b,0xb3,0xce,0x04,0x44,0xe4,
0xe3,0x2c,0xfe,0xcc,0xa6,0xf7,0x1b,0x48,0x44,0x57,0x0e,0x36,
0x22,0xce,0x47,0xe6,0x3f,0xc3,0x05,0x3a,0xde,0xcf,0x42,0x25,
0x24,0x44,0xf3,0x22,0xde,0xfa,0x23,0x1a,0x11,0x42,0x14,0xff,
0x45,0x26,0x1e,0x5a,0x47,0xfa,0xfd,0x03,0x50,0x27,0x09,0x43,
0x20,0x2b,0xf5,0x25,0x39,0x0b,0x19,0xfb,0x0e,0x0f,0x2f,0x3c,
0x04,0xda,0xc7,0x0f,0x31,0x26,0x30,0xe9,0xfb,0x33,0x04,0xa0,
0x96,0x09,0x19,0x35,0xfe,0x1c,0xbe,0xa8,0x41,0x29,0x2c,0xbb,
0x0d,0xba,0xcf,0xf4,0xfc,0x0b,0xeb,0x4b,0x27,0x4c,0x44,0xd2,
0x09,0x2d,0xf0,0x90,0xcc,0x1c,0x00,0x13,0x34,0x2b,0xef,0xcf,
0x45,0x25,0xe9,0xff,0x33,0x01,0x1f,0xfc,0xd3,0xb2,0x3e,0x2e,
0x63,0xca,0xb6,0x1b,0xa6,0x31,0x2e,0xe5,0xec,0xbe,0x02,0xdc,
0x0f,0x13,0x36,0x21,0x24,0x28,0x2a,0x06,0x12,0x36,0xe1,0xb9,
0x01,0x43,0xec,0x0e,0xac,0x41,0x0b,0x05,0x48,0x4c,0x13,0x18,
0x29,0xe7,0xf3,0xf6,0x41,0xbc,0xe7,0x2b,0xcf,0xc7,0x49,0x5d,
0x54,0x48,0x26,0xd4,0x0d,0xca,0x2f,0xfa,0x28,0xb8,0x22,0xfc,
0xf0,0xf3,0x12,0x63,0x31,0x5f,0x0b,0xe2,0xf4,0xea,0x26,0xe7,
0xbf,0x25,0xec,0xfe,0xf0,0xe8,0x24,0xea,0xcb,0x50,0xe6,0x30,
0x0f,0xc8,0x29,0xcc,0x07,0x17,0xc4,0x7b,0x37,0xee,0x20,0x44,
0x39,0x12,0xca,0xcf,0xc3,0xfc,0x02,0x58,0x2f,0xb5,0x3d,0xc9,
0x12,0xe8,0xff,0x0a,0xdc,0x64,0x25,0xc7,0x1e,0x4d,0x2e,0xd8,
0xe4,0x1a,0x1f,0x10,0x1a,0xcd,0x8e,0x10,0x3d,0x2c,0xb2,0x2c,
0xc1,0x3f,0x81,0x42,0x4f,0xd6,0xf7,0xdf,0x35,0x00,0xe3,0xf4,
0x17,0x25,0xc0,0x3b,0x40,0xb2,0xaf,0x33,0xfb,0xe3,0x06,0x8d,
0x06,0xc7,0x8a,0x1e,0xbf,0x3f,0x3e,0x0f,0xf7,0x11,0x0b,0x0e,
0xe5,0xf7,0x3e,0x26,0x0f,0x00,0xe7,0x3e,0x39,0x12,0xfd,0xe7,
0xdf,0x2d,0xf9,0x2c,0x1b,0x31,0x49,0x04,0xfc,0x3a,0x13,0xc6,
0xea,0x04,0x22,0xf7,0xf5,0xe7,0x15,0x2d,0x00,0x06,0xe3,0x2c,
0xfb,0xd1,0x2b,0xda,0xae,0xd5,0x31,0xd9,0xae,0xfe,0xff,0xff,
0x04,0x00,0x00,0x00,0x40,0x00,0x00,0x00,0x45,0x09,0x00,0x00,
0x1e,0xfe,0xff,0xff,0xb3,0xff,0xff,0xff,0x3b,0xfb,0xff,0xff,
0xba,0x07,0x00,0x00,0x30,0x00,0x00,0x00,0xd3,0x03,0x00,0x00,
0xe4,0x01,0x00,0x00,0xd6,0x04,0x00,0x00,0x0d,0x00,0x00,0x00,
0x86,0x00,0x00,0x00,0xaa,0xf8,0xff,0xff,0x55,0x00,0x00,0x00,
0x97,0x04,0x00,0x00,0x97,0xfe,0xff,0xff,0xc0,0xff,0xff,0xff,
0xfa,0xfe,0xff,0xff,0x04,0x00,0x00,0x00,0x20,0x00,0x00,0x00,
0xb0,0x19,0x57,0xd4,0xb3,0x1e,0x39,0x28,0x69,0xe4,0xa6,0x3c,
0xf6,0x1c,0x81,0xb7,0x06,0xbc,0x2b,0x2d,0x06,0xd3,0xb0,0xec,
0xea,0xb9,0x4a,0x20,0xba,0xd3,0x6d,0x01,0x26,0xff,0xff,0xff,
0x04,0x00,0x00,0x00,0x08,0x00,0x00,0x00,0x73,0xff,0xff,0xff,
0x8d,0x00,0x00,0x00,0x3a,0xff,0xff,0xff,0x04,0x00,0x00,0x00,
0x08,0x00,0x00,0x00,0xff,0xff,0xff,0xff,0x08,0x00,0x00,0x00,
0xac,0xf6,0xff,0xff,0xb0,0xf6,0xff,0xff,0x0f,0x00,0x00,0x00,
0x4d,0x4c,0x49,0x52,0x20,0x43,0x6f,0x6e,0x76,0x65,0x72,0x74,
0x65,0x64,0x2e,0x00,0x01,0x00,0x00,0x00,0x14,0x00,0x00,0x00,
0x00,0x00,0x0e,0x00,0x18,0x00,0x14,0x00,0x10,0x00,0x0c,0x00,
0x08,0x00,0x04,0x00,0x0e,0x00,0x00,0x00,0x14,0x00,0x00,0x00,
0x1c,0x00,0x00,0x00,0xa4,0x01,0x00,0x00,0xa8,0x01,0x00,0x00,
0xac,0x01,0x00,0x00,0x04,0x00,0x00,0x00,0x6d,0x61,0x69,0x6e,
0x00,0x00,0x00,0x00,0x07,0x00,0x00,0x00,0x6c,0x01,0x00,0x00,
0x38,0x01,0x00,0x00,0xe8,0x00,0x00,0x00,0x9c,0x00,0x00,0x00,
0x64,0x00,0x00,0x00,0x28,0x00,0x00,0x00,0x04,0x00,0x00,0x00,
0xea,0xfe,0xff,0xff,0x0c,0x00,0x00,0x00,0x10,0x00,0x00,0x00,
0x04,0x00,0x00,0x00,0x01,0x00,0x00,0x00,0x0e,0x00,0x00,0x00,
0x01,0x00,0x00,0x00,0x0d,0x00,0x00,0x00,0x5a,0xff,0xff,0xff,
0x1c,0x00,0x00,0x00,0x00,0x00,0x00,0x09,0x1c,0x00,0x00,0x00,
0x20,0x00,0x00,0x00,0x03,0x00,0x00,0x00,0x00,0x00,0x06,0x00,
0x08,0x00,0x04,0x00,0x06,0x00,0x00,0x00,0x00,0x00,0x80,0x3f,
0x01,0x00,0x00,0x00,0x0d,0x00,0x00,0x00,0x01,0x00,0x00,0x00,
0x0c,0x00,0x00,0x00,0x92,0xff,0xff,0xff,0x14,0x00,0x00,0x00,
0x00,0x00,0x00,0x08,0x10,0x00,0x00,0x00,0x14,0x00,0x00,0x00,
0x02,0x00,0x00,0x00,0x94,0xf7,0xff,0xff,0x01,0x00,0x00,0x00,
0x0c,0x00,0x00,0x00,0x03,0x00,0x00,0x00,0x0b,0x00,0x00,0x00,
0x03,0x00,0x00,0x00,0x02,0x00,0x00,0x00,0xc6,0xff,0xff,0xff,
0x14,0x00,0x00,0x00,0x00,0x00,0x00,0x08,0x14,0x00,0x00,0x00,
0x18,0x00,0x00,0x00,0x02,0x00,0x00,0x00,0xb6,0xff,0xff,0xff,
0x00,0x00,0x00,0x01,0x01,0x00,0x00,0x00,0x0b,0x00,0x00,0x00,
0x03,0x00,0x00,0x00,0x0a,0x00,0x00,0x00,0x05,0x00,0x00,0x00,
0x04,0x00,0x00,0x00,0x00,0x00,0x0e,0x00,0x1a,0x00,0x14,0x00,
0x10,0x00,0x0c,0x00,0x0b,0x00,0x04,0x00,0x0e,0x00,0x00,0x00,
0x1c,0x00,0x00,0x00,0x00,0x00,0x00,0x08,0x1c,0x00,0x00,0x00,
0x20,0x00,0x00,0x00,0x02,0x00,0x00,0x00,0x00,0x00,0x06,0x00,
0x08,0x00,0x07,0x00,0x06,0x00,0x00,0x00,0x00,0x00,0x00,0x01,
0x01,0x00,0x00,0x00,0x0a,0x00,0x00,0x00,0x03,0x00,0x00,0x00,
0x09,0x00,0x00,0x00,0x07,0x00,0x00,0x00,0x06,0x00,0x00,0x00,
0x00,0x00,0x0a,0x00,0x10,0x00,0x0c,0x00,0x08,0x00,0x04,0x00,
0x0a,0x00,0x00,0x00,0x0c,0x00,0x00,0x00,0x10,0x00,0x00,0x00,
0x01,0x00,0x00,0x00,0x01,0x00,0x00,0x00,0x09,0x00,0x00,0x00,
0x02,0x00,0x00,0x00,0x08,0x00,0x00,0x00,0x01,0x00,0x00,0x00,
0x00,0x00,0x0a,0x00,0x0c,0x00,0x00,0x00,0x08,0x00,0x04,0x00,
0x0a,0x00,0x00,0x00,0x08,0x00,0x00,0x00,0x0c,0x00,0x00,0x00,
0x01,0x00,0x00,0x00,0x08,0x00,0x00,0x00,0x01,0x00,0x00,0x00,
0x00,0x00,0x00,0x00,0x01,0x00,0x00,0x00,0x0e,0x00,0x00,0x00,
0x01,0x00,0x00,0x00,0x00,0x00,0x00,0x00,0x0f,0x00,0x00,0x00,
0x34,0x07,0x00,0x00,0xcc,0x06,0x00,0x00,0x30,0x06,0x00,0x00,
0xc0,0x05,0x00,0x00,0x44,0x05,0x00,0x00,0xd8,0x04,0x00,0x00,
0x5c,0x04,0x00,0x00,0xf0,0x03,0x00,0x00,0x7c,0x03,0x00,0x00,
0xe0,0x02,0x00,0x00,0x2c,0x02,0x00,0x00,0x78,0x01,0x00,0x00,
0xdc,0x00,0x00,0x00,0x60,0x00,0x00,0x00,0x04,0x00,0x00,0x00,
0x1e,0xf9,0xff,0xff,0x00,0x00,0x00,0x01,0x14,0x00,0x00,0x00,
0x1c,0x00,0x00,0x00,0x1c,0x00,0x00,0x00,0x0f,0x00,0x00,0x00,
0x34,0x00,0x00,0x00,0x02,0x00,0x00,0x00,0xff,0xff,0xff,0xff,
0x02,0x00,0x00,0x00,0x08,0xf9,0xff,0xff,0x19,0x00,0x00,0x00,
0x53,0x74,0x61,0x74,0x65,0x66,0x75,0x6c,0x50,0x61,0x72,0x74,
0x69,0x74,0x69,0x6f,0x6e,0x65,0x64,0x43,0x61,0x6c,0x6c,0x3a,
0x30,0x00,0x00,0x00,0x02,0x00,0x00,0x00,0x01,0x00,0x00,0x00,
0x02,0x00,0x00,0x00,0x0e,0xfd,0xff,0xff,0x00,0x00,0x00,0x01,
0x18,0x00,0x00,0x00,0x20,0x00,0x00,0x00,0x3c,0x00,0x00,0x00,
0x0e,0x00,0x00,0x00,0x00,0x00,0x00,0x09,0x50,0x00,0x00,0x00,
0x02,0x00,0x00,0x00,0xff,0xff,0xff,0xff,0x02,0x00,0x00,0x00,
0x6c,0xfa,0xff,0xff,0x08,0x00,0x00,0x00,0x10,0x00,0x00,0x00,
0x01,0x00,0x00,0x00,0x80,0xff,0xff,0xff,0xff,0xff,0xff,0xff,
0x01,0x00,0x00,0x00,0x00,0x00,0x80,0x3b,0x1a,0x00,0x00,0x00,
0x53,0x74,0x61,0x74,0x65,0x66,0x75,0x6c,0x50,0x61,0x72,0x74,
0x69,0x74,0x69,0x6f,0x6e,0x65,0x64,0x43,0x61,0x6c,0x6c,0x3a,
0x30,0x31,0x00,0x00,0x02,0x00,0x00,0x00,0x01,0x00,0x00,0x00,
0x02,0x00,0x00,0x00,0x86,0xfd,0xff,0xff,0x00,0x00,0x00,0x01,
0x18,0x00,0x00,0x00,0x20,0x00,0x00,0x00,0x3c,0x00,0x00,0x00,
0x0d,0x00,0x00,0x00,0x00,0x00,0x00,0x09,0x70,0x00,0x00,0x00,
0x02,0x00,0x00,0x00,0xff,0xff,0xff,0xff,0x02,0x00,0x00,0x00,
0xe4,0xfa,0xff,0xff,0x08,0x00,0x00,0x00,0x10,0x00,0x00,0x00,
0x01,0x00,0x00,0x00,0xde,0xff,0xff,0xff,0xff,0xff,0xff,0xff,
0x01,0x00,0x00,0x00,0x77,0x23,0x58,0x3d,0x38,0x00,0x00,0x00,
0x73,0x65,0x71,0x75,0x65,0x6e,0x74,0x69,0x61,0x6c,0x5f,0x32,
0x2f,0x64,0x65,0x6e,0x73,0x65,0x5f,0x39,0x2f,0x4d,0x61,0x74,
0x4d,0x75,0x6c,0x3b,0x73,0x65,0x71,0x75,0x65,0x6e,0x74,0x69,
0x61,0x6c,0x5f,0x32,0x2f,0x64,0x65,0x6e,0x73,0x65,0x5f,0x39,
0x2f,0x42,0x69,0x61,0x73,0x41,0x64,0x64,0x00,0x00,0x00,0x00,
0x02,0x00,0x00,0x00,0x01,0x00,0x00,0x00,0x02,0x00,0x00,0x00,
0x1e,0xfe,0xff,0xff,0x00,0x00,0x00,0x01,0x18,0x00,0x00,0x00,
0x20,0x00,0x00,0x00,0x3c,0x00,0x00,0x00,0x0c,0x00,0x00,0x00,
0x00,0x00,0x00,0x09,0x88,0x00,0x00,0x00,0x02,0x00,0x00,0x00,
0xff,0xff,0xff,0xff,0x10,0x00,0x00,0x00,0x7c,0xfb,0xff,0xff,
0x08,0x00,0x00,0x00,0x10,0x00,0x00,0x00,0x01,0x00,0x00,0x00,
0x80,0xff,0xff,0xff,0xff,0xff,0xff,0xff,0x01,0x00,0x00,0x00,
0xad,0x9d,0x6b,0x3c,0x52,0x00,0x00,0x00,0x73,0x65,0x71,0x75,
0x65,0x6e,0x74,0x69,0x61,0x6c,0x5f,0x32,0x2f,0x64,0x65,0x6e,
0x73,0x65,0x5f,0x38,0x2f,0x4d,0x61,0x74,0x4d,0x75,0x6c,0x3b,
0x73,0x65,0x71,0x75,0x65,0x6e,0x74,0x69,0x61,0x6c,0x5f,0x32,
0x2f,0x64,0x65,0x6e,0x73,0x65,0x5f,0x38,0x2f,0x52,0x65,0x6c,
0x75,0x3b,0x73,0x65,0x71,0x75,0x65,0x6e,0x74,0x69,0x61,0x6c,
0x5f,0x32,0x2f,0x64,0x65,0x6e,0x73,0x65,0x5f,0x38,0x2f,0x42,
0x69,0x61,0x73,0x41,0x64,0x64,0x00,0x00,0x02,0x00,0x00,0x00,
0x01,0x00,0x00,0x00,0x10,0x00,0x00,0x00,0xce,0xfe,0xff,0xff,
0x00,0x00,0x00,0x01,0x18,0x00,0x00,0x00,0x20,0x00,0x00,0x00,
0x3c,0x00,0x00,0x00,0x0b,0x00,0x00,0x00,0x00,0x00,0x00,0x09,
0x88,0x00,0x00,0x00,0x02,0x00,0x00,0x00,0xff,0xff,0xff,0xff,
0x30,0x00,0x00,0x00,0x2c,0xfc,0xff,0xff,0x08,0x00,0x00,0x00,
0x10,0x00,0x00,0x00,0x01,0x00,0x00,0x00,0x80,0xff,0xff,0xff,
0xff,0xff,0xff,0xff,0x01,0x00,0x00,0x00,0x1d,0x44,0x61,0x3c,
0x52,0x00,0x00,0x00,0x73,0x65,0x71,0x75,0x65,0x6e,0x74,0x69,
0x61,0x6c,0x5f,0x32,0x2f,0x64,0x65,0x6e,0x73,0x65,0x5f,0x37,
0x2f,0x4d,0x61,0x74,0x4d,0x75,0x6c,0x3b,0x73,0x65,0x71,0x75,
0x65,0x6e,0x74,0x69,0x61,0x6c,0x5f,0x32,0x2f,0x64,0x65,0x6e,
0x73,0x65,0x5f,0x37,0x2f,0x52,0x65,0x6c,0x75,0x3b,0x73,0x65,
0x71,0x75,0x65,0x6e,0x74,0x69,0x61,0x6c,0x5f,0x32,0x2f,0x64,
0x65,0x6e,0x73,0x65,0x5f,0x37,0x2f,0x42,0x69,0x61,0x73,0x41,
0x64,0x64,0x00,0x00,0x02,0x00,0x00,0x00,0x01,0x00,0x00,0x00,
0x30,0x00,0x00,0x00,0x7e,0xff,0xff,0xff,0x00,0x00,0x00,0x01,
0x18,0x00,0x00,0x00,0x20,0x00,0x00,0x00,0x40,0x00,0x00,0x00,
0x0a,0x00,0x00,0x00,0x00,0x00,0x00,0x09,0x58,0x00,0x00,0x00,
0x02,0x00,0x00,0x00,0xff,0xff,0xff,0xff,0x08,0x00,0x00,0x00,
0xdc,0xfc,0xff,0xff,0x08,0x00,0x00,0x00,0x14,0x00,0x00,0x00,
0x01,0x00,0x00,0x00,0xf2,0xff,0xff,0xff,0xff,0xff,0xff,0xff,
0x00,0x00,0x00,0x00,0x01,0x00,0x00,0x00,0x1b,0x4b,0x14,0x3d,
0x1e,0x00,0x00,0x00,0x73,0x65,0x71,0x75,0x65,0x6e,0x74,0x69,
0x61,0x6c,0x5f,0x32,0x2f,0x66,0x6c,0x61,0x74,0x74,0x65,0x6e,
0x5f,0x32,0x2f,0x52,0x65,0x73,0x68,0x61,0x70,0x65,0x00,0x00,
0x02,0x00,0x00,0x00,0x01,0x00,0x00,0x00,0x08,0x00,0x00,0x00,
0x00,0x00,0x16,0x00,0x20,0x00,0x1c,0x00,0x1b,0x00,0x14,0x00,
0x10,0x00,0x0c,0x00,0x00,0x00,0x00,0x00,0x08,0x00,0x07,0x00,
0x16,0x00,0x00,0x00,0x00,0x00,0x00,0x01,0x18,0x00,0x00,0x00,
0x20,0x00,0x00,0x00,0x40,0x00,0x00,0x00,0x09,0x00,0x00,0x00,
0x00,0x00,0x00,0x09,0x48,0x00,0x00,0x00,0x02,0x00,0x00,0x00,
0xff,0xff,0xff,0xff,0x08,0x00,0x00,0x00,0x74,0xfd,0xff,0xff,
0x08,0x00,0x00,0x00,0x14,0x00,0x00,0x00,0x01,0x00,0x00,0x00,
0xf2,0xff,0xff,0xff,0xff,0xff,0xff,0xff,0x00,0x00,0x00,0x00,
0x01,0x00,0x00,0x00,0x1b,0x4b,0x14,0x3d,0x0c,0x00,0x00,0x00,
0x74,0x66,0x6c,0x2e,0x71,0x75,0x61,0x6e,0x74,0x69,0x7a,0x65,
0x00,0x00,0x00,0x00,0x02,0x00,0x00,0x00,0x01,0x00,0x00,0x00,
0x08,0x00,0x00,0x00,0x52,0xfd,0xff,0xff,0x00,0x00,0x00,0x01,
0x14,0x00,0x00,0x00,0x30,0x00,0x00,0x00,0x08,0x00,0x00,0x00,
0x00,0x00,0x00,0x09,0x44,0x00,0x00,0x00,0xd4,0xfd,0xff,0xff,
0x08,0x00,0x00,0x00,0x10,0x00,0x00,0x00,0x01,0x00,0x00,0x00,
0x00,0x00,0x00,0x00,0x00,0x00,0x00,0x00,0x01,0x00,0x00,0x00,
0x8a,0xbb,0xa4,0x3b,0x1b,0x00,0x00,0x00,0x73,0x65,0x71,0x75,
0x65,0x6e,0x74,0x69,0x61,0x6c,0x5f,0x32,0x2f,0x64,0x65,0x6e,
0x73,0x65,0x5f,0x37,0x2f,0x4d,0x61,0x74,0x4d,0x75,0x6c,0x00,
0x02,0x00,0x00,0x00,0x30,0x00,0x00,0x00,0x08,0x00,0x00,0x00,
0xba,0xfd,0xff,0xff,0x00,0x00,0x00,0x01,0x14,0x00,0x00,0x00,
0x34,0x00,0x00,0x00,0x07,0x00,0x00,0x00,0x00,0x00,0x00,0x02,
0x58,0x00,0x00,0x00,0x3c,0xfe,0xff,0xff,0x08,0x00,0x00,0x00,
0x14,0x00,0x00,0x00,0x01,0x00,0x00,0x00,0x00,0x00,0x00,0x00,
0x00,0x00,0x00,0x00,0x00,0x00,0x00,0x00,0x01,0x00,0x00,0x00,
0x80,0xd9,0x3e,0x39,0x2b,0x00,0x00,0x00,0x73,0x65,0x71,0x75,
0x65,0x6e,0x74,0x69,0x61,0x6c,0x5f,0x32,0x2f,0x64,0x65,0x6e,
0x73,0x65,0x5f,0x37,0x2f,0x42,0x69,0x61,0x73,0x41,0x64,0x64,
0x2f,0x52,0x65,0x61,0x64,0x56,0x61,0x72,0x69,0x61,0x62,0x6c,
0x65,0x4f,0x70,0x00,0x01,0x00,0x00,0x00,0x30,0x00,0x00,0x00,
0x32,0xfe,0xff,0xff,0x00,0x00,0x00,0x01,0x14,0x00,0x00,0x00,
0x30,0x00,0x00,0x00,0x06,0x00,0x00,0x00,0x00,0x00,0x00,0x09,
0x44,0x00,0x00,0x00,0xb4,0xfe,0xff,0xff,0x08,0x00,0x00,0x00,
0x10,0x00,0x00,0x00,0x01,0x00,0x00,0x00,0x00,0x00,0x00,0x00,
0x00,0x00,0x00,0x00,0x01,0x00,0x00,0x00,0xfe,0x93,0x95,0x3b,
0x1b,0x00,0x00,0x00,0x73,0x65,0x71,0x75,0x65,0x6e,0x74,0x69,
0x61,0x6c,0x5f,0x32,0x2f,0x64,0x65,0x6e,0x73,0x65,0x5f,0x38,
0x2f,0x4d,0x61,0x74,0x4d,0x75,0x6c,0x00,0x02,0x00,0x00,0x00,
0x10,0x00,0x00,0x00,0x30,0x00,0x00,0x00,0x9a,0xfe,0xff,0xff,
0x00,0x00,0x00,0x01,0x14,0x00,0x00,0x00,0x34,0x00,0x00,0x00,
0x05,0x00,0x00,0x00,0x00,0x00,0x00,0x02,0x58,0x00,0x00,0x00,
0x1c,0xff,0xff,0xff,0x08,0x00,0x00,0x00,0x14,0x00,0x00,0x00,
0x01,0x00,0x00,0x00,0x00,0x00,0x00,0x00,0x00,0x00,0x00,0x00,
0x00,0x00,0x00,0x00,0x01,0x00,0x00,0x00,0xde,0x9e,0x83,0x38,
0x2b,0x00,0x00,0x00,0x73,0x65,0x71,0x75,0x65,0x6e,0x74,0x69,
0x61,0x6c,0x5f,0x32,0x2f,0x64,0x65,0x6e,0x73,0x65,0x5f,0x38,
0x2f,0x42,0x69,0x61,0x73,0x41,0x64,0x64,0x2f,0x52,0x65,0x61,
0x64,0x56,0x61,0x72,0x69,0x61,0x62,0x6c,0x65,0x4f,0x70,0x00,
0x01,0x00,0x00,0x00,0x10,0x00,0x00,0x00,0x12,0xff,0xff,0xff,
0x00,0x00,0x00,0x01,0x14,0x00,0x00,0x00,0x34,0x00,0x00,0x00,
0x04,0x00,0x00,0x00,0x00,0x00,0x00,0x09,0x48,0x00,0x00,0x00,
0x94,0xff,0xff,0xff,0x08,0x00,0x00,0x00,0x14,0x00,0x00,0x00,
0x01,0x00,0x00,0x00,0x00,0x00,0x00,0x00,0x00,0x00,0x00,0x00,
0x00,0x00,0x00,0x00,0x01,0x00,0x00,0x00,0x4b,0x0a,0x01,0x3c,
0x1b,0x00,0x00,0x00,0x73,0x65,0x71,0x75,0x65,0x6e,0x74,0x69,
0x61,0x6c,0x5f,0x32,0x2f,0x64,0x65,0x6e,0x73,0x65,0x5f,0x39,
0x2f,0x4d,0x61,0x74,0x4d,0x75,0x6c,0x00,0x02,0x00,0x00,0x00,
0x02,0x00,0x00,0x00,0x10,0x00,0x00,0x00,0x7e,0xff,0xff,0xff,
0x00,0x00,0x00,0x01,0x20,0x00,0x00,0x00,0x3c,0x00,0x00,0x00,
0x03,0x00,0x00,0x00,0x00,0x00,0x00,0x02,0x60,0x00,0x00,0x00,
0x0c,0x00,0x0c,0x00,0x00,0x00,0x00,0x00,0x08,0x00,0x04,0x00,
0x0c,0x00,0x00,0x00,0x08,0x00,0x00,0x00,0x10,0x00,0x00,0x00,
0x01,0x00,0x00,0x00,0x00,0x00,0x00,0x00,0x00,0x00,0x00,0x00,
0x01,0x00,0x00,0x00,0xdb,0x87,0xed,0x38,0x2b,0x00,0x00,0x00,
0x73,0x65,0x71,0x75,0x65,0x6e,0x74,0x69,0x61,0x6c,0x5f,0x32,
0x2f,0x64,0x65,0x6e,0x73,0x65,0x5f,0x39,0x2f,0x42,0x69,0x61,
0x73,0x41,0x64,0x64,0x2f,0x52,0x65,0x61,0x64,0x56,0x61,0x72,
0x69,0x61,0x62,0x6c,0x65,0x4f,0x70,0x00,0x01,0x00,0x00,0x00,
0x02,0x00,0x00,0x00,0x00,0x00,0x16,0x00,0x1c,0x00,0x18,0x00,
0x17,0x00,0x10,0x00,0x0c,0x00,0x08,0x00,0x00,0x00,0x00,0x00,
0x00,0x00,0x07,0x00,0x16,0x00,0x00,0x00,0x00,0x00,0x00,0x01,
0x14,0x00,0x00,0x00,0x14,0x00,0x00,0x00,0x02,0x00,0x00,0x00,
0x00,0x00,0x00,0x02,0x2c,0x00,0x00,0x00,0x90,0xff,0xff,0xff,
0x1c,0x00,0x00,0x00,0x73,0x65,0x71,0x75,0x65,0x6e,0x74,0x69,
0x61,0x6c,0x5f,0x32,0x2f,0x66,0x6c,0x61,0x74,0x74,0x65,0x6e,
0x5f,0x32,0x2f,0x43,0x6f,0x6e,0x73,0x74,0x00,0x00,0x00,0x00,
0x01,0x00,0x00,0x00,0x02,0x00,0x00,0x00,0x00,0x00,0x16,0x00,
0x1c,0x00,0x18,0x00,0x00,0x00,0x14,0x00,0x10,0x00,0x0c,0x00,
0x00,0x00,0x00,0x00,0x08,0x00,0x07,0x00,0x16,0x00,0x00,0x00,
0x00,0x00,0x00,0x01,0x14,0x00,0x00,0x00,0x20,0x00,0x00,0x00,
0x20,0x00,0x00,0x00,0x01,0x00,0x00,0x00,0x40,0x00,0x00,0x00,
0x02,0x00,0x00,0x00,0xff,0xff,0xff,0xff,0x08,0x00,0x00,0x00,
0x04,0x00,0x04,0x00,0x04,0x00,0x00,0x00,0x21,0x00,0x00,0x00,
0x73,0x65,0x72,0x76,0x69,0x6e,0x67,0x5f,0x64,0x65,0x66,0x61,
0x75,0x6c,0x74,0x5f,0x66,0x6c,0x61,0x74,0x74,0x65,0x6e,0x5f,
0x32,0x5f,0x69,0x6e,0x70,0x75,0x74,0x3a,0x30,0x00,0x00,0x00,
0x02,0x00,0x00,0x00,0x01,0x00,0x00,0x00,0x08,0x00,0x00,0x00,
0x05,0x00,0x00,0x00,0x68,0x00,0x00,0x00,0x4c,0x00,0x00,0x00,
0x38,0x00,0x00,0x00,0x18,0x00,0x00,0x00,0x04,0x00,0x00,0x00,
0xe0,0xff,0xff,0xff,0x06,0x00,0x00,0x00,0x02,0x00,0x00,0x00,
0x00,0x00,0x00,0x06,0xf0,0xff,0xff,0xff,0x19,0x00,0x00,0x00,
0x02,0x00,0x00,0x00,0x00,0x00,0x00,0x19,0x0c,0x00,0x10,0x00,
0x0f,0x00,0x00,0x00,0x08,0x00,0x04,0x00,0x0c,0x00,0x00,0x00,
0x09,0x00,0x00,0x00,0x04,0x00,0x00,0x00,0x00,0x00,0x00,0x09,
0xf4,0xff,0xff,0xff,0x16,0x00,0x00,0x00,0x00,0x00,0x00,0x16,
0x0c,0x00,0x0c,0x00,0x0b,0x00,0x00,0x00,0x00,0x00,0x04,0x00,
0x0c,0x00,0x00,0x00,0x72,0x00,0x00,0x00,0x00,0x00,0x00,0x72

};

#endif //DIABETES_MODEL_ESP32_H